<pad>	0
<unk>	0
s	-2.87921
.	-3.14062
▁the	-3.33591
▁	-3.99742
▁a	-4.11861
d	-4.15193
,	-4.16713
t	-4.24534
▁of	-4.29089
ed	-4.29945
n	-4.33275
▁in	-4.35696
▁and	-4.50121
y	-4.56508
▁to	-4.5997
a	-4.61485
e	-4.66605
▁is	-4.6769
ing	-4.68392
r	-4.70887
▁was	-4.89041
p	-4.90672
▁he	-5.10695
l	-5.13586
o	-5.18338
c	-5.2122
er	-5.21669
al	-5.23182
u	-5.23896
g	-5.25745
m	-5.26283
le	-5.26387
▁re	-5.26537
ly	-5.29388
re	-5.31606
i	-5.32293
b	-5.36163
▁it	-5.36254
w	-5.38845
▁for	-5.39219
f	-5.45428
or	-5.48333
'	-5.52681
-	-5.53178
in	-5.5402
an	-5.5846
ar	-5.64599
▁be	-5.65841
▁are	-5.67163
ll	-5.69637
ri	-5.70879
es	-5.71376
k	-5.72044
▁his	-5.73918
▁by	-5.76274
▁"	-5.76393
▁on	-5.76832
▁with	-5.78398
th	-5.7975
st	-5.81432
▁also	-5.85792
▁as	-5.87135
▁e	-5.88777
▁an	-5.89737
▁this	-5.90513
ch	-5.92881
▁at	-5.96065
ic	-5.96635
ce	-5.97406
ur	-5.97654
ation	-5.98346
en	-5.99191
ro	-6.0616
ter	-6.06739
on	-6.08372
▁de	-6.09105
li	-6.09358
ent	-6.1035
se	-6.11935
▁me	-6.14992
ne	-6.1533
▁c	-6.15457
la	-6.17668
ck	-6.17986
ra	-6.18298
▁were	-6.19944
il	-6.2102
▁con	-6.2193
▁from	-6.23102
▁has	-6.23929
it	-6.24953
"	-6.26224
▁g	-6.27927
▁pa	-6.2823
x	-6.28405
▁se	-6.29265
z	-6.29402
lo	-6.30503
▁that	-6.3118
te	-6.31307
ve	-6.35224
▁ro	-6.36265
▁she	-6.37086
▁ma	-6.39015
h	-6.40384
▁i	-6.41243
ment	-6.41836
ge	-6.42131
ir	-6.43837
me	-6.45482
▁not	-6.47864
ate	-6.49674
▁ex	-6.51628
el	-6.52486
▁ba	-6.53549
ist	-6.54046
▁do	-6.54436
▁b	-6.54627
▁ca	-6.54819
▁w	-6.56124
us	-6.57118
et	-6.57387
ti	-6.5807
ion	-6.58155
▁mo	-6.58965
▁bo	-6.59172
v	-6.59424
vi	-6.59677
▁ho	-6.60336
▁lo	-6.61256
▁no	-6.61658
ry	-6.62193
▁or	-6.62573
ive	-6.62595
ver	-6.63113
▁her	-6.63683
est	-6.64029
▁ra	-6.64189
▁have	-6.65639
▁k	-6.65657
▁f	-6.65967
".	-6.66205
ted	-6.66632
mp	-6.66887
▁po	-6.67606
▁pro	-6.68322
▁two	-6.69176
co	-6.70698
de	-6.72313
ta	-6.72338
ma	-6.72689
ke	-6.72693
ian	-6.72723
▁one	-6.73486
ng	-6.73758
▁fa	-6.73797
▁all	-6.75741
▁can	-6.76247
▁di	-6.78927
▁so	-6.78955
▁ha	-6.79903
▁un	-6.80059
▁la	-6.81015
ul	-6.82032
▁o	-6.82075
▁co	-6.82343
▁li	-6.8286
ated	-6.82903
▁sa	-6.83046
age	-6.83301
▁they	-6.83358
▁sp	-6.83407
tion	-6.84509
▁mi	-6.84612
▁su	-6.84812
ers	-6.85091
ad	-6.85157
ity	-6.86167
na	-6.86205
▁si	-6.86232
ant	-6.88904
tic	-6.88987
▁after	-6.89661
▁had	-6.89827
is	-6.89894
man	-6.91525
ol	-6.9167
ow	-6.92225
▁cha	-6.9228
lu	-6.92582
▁le	-6.93197
▁other	-6.93263
▁part	-6.9327
at	-6.93412
ish	-6.93429
ight	-6.93678
ard	-6.93822
▁been	-6.93898
▁there	-6.94011
▁first	-6.94309
▁da	-6.94834
ci	-6.95115
ia	-6.95394
▁new	-6.97268
▁school	-6.97663
▁its	-6.97695
ff	-6.97991
▁their	-6.98197
sh	-6.98484
di	-6.98565
mo	-6.98777
ton	-7.00442
ide	-7.00522
▁work	-7.00896
ical	-7.01339
bo	-7.01614
om	-7.01907
im	-7.02942
ut	-7.0474
id	-7.05207
vo	-7.05662
▁some	-7.0605
▁te	-7.06467
▁ta	-7.07266
son	-7.07754
ance	-7.07768
ha	-7.07869
▁we	-7.08094
ber	-7.08418
ba	-7.08746
▁time	-7.10275
▁comp	-7.1059
tor	-7.10998
der	-7.11357
j	-7.12584
▁mar	-7.12705
▁go	-7.13416
ca	-7.13633
▁man	-7.15856
per	-7.16177
▁but	-7.16538
po	-7.16594
um	-7.17087
ting	-7.17226
ence	-7.17559
▁sc	-7.17576
▁fi	-7.17664
ig	-7.18052
ies	-7.18395
▁pre	-7.18404
able	-7.18416
und	-7.18476
▁these	-7.186
op	-7.18842
▁com	-7.19037
▁most	-7.19389
no	-7.1943
ven	-7.19799
▁car	-7.20155
am	-7.20291
to	-7.20568
▁up	-7.20657
▁many	-7.21532
end	-7.21792
▁pi	-7.23239
ture	-7.23278
ru	-7.23373
▁later	-7.23669
ally	-7.24092
nk	-7.24368
ok	-7.24742
ine	-7.25509
▁fe	-7.26199
pe	-7.27286
▁en	-7.27891
ot	-7.27989
▁used	-7.28172
▁out	-7.28194
land	-7.28646
▁st	-7.29625
▁high	-7.29859
▁you	-7.30277
▁dis	-7.3094
ect	-7.31904
ction	-7.3205
▁include	-7.32628
▁three	-7.32765
un	-7.3289
pp	-7.32989
ni	-7.33458
▁town	-7.34634
▁however	-7.34824
▁ne	-7.35376
mi	-7.35739
ship	-7.35842
he	-7.36032
▁bu	-7.36258
ary	-7.36458
ty	-7.36462
▁mu	-7.36699
min	-7.37008
ph	-7.37254
▁state	-7.37684
▁vi	-7.3801
▁bi	-7.38542
▁pe	-7.38908
▁ri	-7.38964
▁name	-7.40775
fer	-7.40812
▁into	-7.41782
▁wa	-7.41867
▁sto	-7.43587
▁col	-7.4363
ous	-7.44398
▁over	-7.44764
▁ja	-7.44791
ward	-7.45018
▁jo	-7.4535
▁du	-7.45609
▁va	-7.46771
▁inter	-7.4687
ition	-7.47025
▁city	-7.47038
cu	-7.476
▁known	-7.47825
▁only	-7.4787
▁ga	-7.48414
▁during	-7.48655
go	-7.48751
▁several	-7.48815
▁sta	-7.48823
qu	-7.48925
▁both	-7.49319
the	-7.49918
▁area	-7.50655
em	-7.50752
▁pri	-7.5119
▁dr	-7.51451
▁more	-7.52577
▁may	-7.52692
ial	-7.52867
▁him	-7.52931
▁cre	-7.5345
ster	-7.53593
▁na	-7.53832
▁tra	-7.53841
ell	-7.53884
▁hu	-7.53912
▁hi	-7.53919
▁act	-7.54464
▁ar	-7.54662
▁qu	-7.5565
▁under	-7.57144
▁gu	-7.57341
way	-7.5742
be	-7.57477
ther	-7.57639
▁gra	-7.58922
ative	-7.58952
▁born	-7.59514
ten	-7.59802
▁al	-7.5994
tain	-7.60471
▁war	-7.61988
bi	-7.62162
▁mon	-7.63385
▁form	-7.63509
hi	-7.63569
sion	-7.63917
▁found	-7.63924
one	-7.63952
▁large	-7.64048
▁four	-7.64313
▁main	-7.64589
▁pu	-7.64847
▁became	-7.64859
▁who	-7.65067
ved	-7.65199
ak	-7.65993
va	-7.66129
ugh	-7.67426
▁play	-7.68216
▁ph	-7.68272
▁located	-7.69003
▁north	-7.69315
▁which	-7.69732
▁film	-7.70112
▁music	-7.70508
tch	-7.70565
ho	-7.71059
▁south	-7.71859
▁named	-7.71967
▁art	-7.72041
▁use	-7.72287
▁ru	-7.72404
tu	-7.72496
tro	-7.72947
▁ju	-7.73002
▁years	-7.73149
ries	-7.73235
▁university	-7.73438
▁fre	-7.74181
▁year	-7.74722
▁would	-7.75445
port	-7.76322
▁win	-7.76562
▁member	-7.76966
ga	-7.76969
▁sha	-7.77267
ie	-7.77502
▁now	-7.77682
▁star	-7.78052
▁fin	-7.7808
▁made	-7.78449
▁when	-7.78802
ner	-7.78925
bu	-7.79425
red	-7.79544
▁har	-7.79609
▁app	-7.80138
▁flo	-7.80517
▁called	-7.80634
ron	-7.80663
▁county	-7.80681
▁ki	-7.80995
▁show	-7.81549
▁will	-7.81758
lf	-7.82105
day	-7.82106
▁game	-7.82194
▁trans	-7.82227
act	-7.8235
ful	-7.82611
?	-7.83179
▁well	-7.8359
▁per	-7.83824
▁team	-7.84439
lic	-7.84549
▁fo	-7.8598
▁even	-7.86007
tra	-7.8607
▁je	-7.86137
▁tri	-7.86289
▁song	-7.86917
▁second	-7.87143
▁dec	-7.87291
mon	-7.87576
che	-7.87594
▁min	-7.88359
▁through	-7.88455
wa	-7.88825
▁group	-7.8883
▁own	-7.89075
▁ste	-7.8915
cent	-7.89214
▁fu	-7.89574
▁cri	-7.90123
▁long	-7.90419
serv	-7.90507
▁home	-7.90756
▁each	-7.90832
▁river	-7.91076
▁record	-7.91176
▁cu	-7.91462
▁live	-7.91504
▁plan	-7.9154
ite	-7.91974
ttle	-7.92502
▁park	-7.9257
▁album	-7.93075
▁sub	-7.93562
▁bra	-7.9401
ism	-7.94327
▁remain	-7.9494
▁station	-7.95037
▁people	-7.95199
▁cor	-7.95315
▁direct	-7.95328
▁house	-7.95921
▁appear	-7.95973
mit	-7.96235
▁end	-7.96656
▁about	-7.97396
▁sur	-7.97482
!	-7.97779
▁national	-7.97828
▁imp	-7.9851
▁day	-7.98845
com	-7.9912
▁el	-7.99125
gg	-7.99661
iv	-7.99684
▁small	-7.99915
▁public	-8.00101
▁played	-8.00514
field	-8.00957
▁develop	-8.00957
que	-8.00985
▁very	-8.0134
▁local	-8.01475
▁wi	-8.01804
▁often	-8.02011
▁general	-8.02053
▁such	-8.02237
▁than	-8.0232
▁number	-8.02345
▁place	-8.02355
▁book	-8.02774
▁world	-8.03584
▁college	-8.04046
▁feature	-8.04046
▁bar	-8.04161
ger	-8.04451
▁service	-8.0446
▁see	-8.05224
ual	-8.05266
▁family	-8.05552
▁system	-8.056
▁design	-8.06257
▁east	-8.06381
▁son	-8.06604
val	-8.06612
▁chi	-8.06697
▁children	-8.06884
▁sho	-8.08038
▁did	-8.08108
▁between	-8.08227
▁produce	-8.08595
▁line	-8.08683
▁perform	-8.08785
▁water	-8.09015
ized	-8.09064
ise	-8.09747
▁original	-8.09793
▁like	-8.09844
▁take	-8.10609
tin	-8.11156
▁old	-8.11612
▁my	-8.1169
▁ti	-8.11853
ities	-8.11995
▁back	-8.12491
▁ni	-8.12623
ator	-8.13107
line	-8.13225
▁same	-8.13946
▁still	-8.1435
▁im	-8.14466
▁common	-8.14571
qui	-8.14624
▁fra	-8.14645
wood	-8.14863
▁release	-8.14979
▁cla	-8.1499
▁district	-8.15126
▁served	-8.15675
▁village	-8.16342
▁near	-8.16542
▁band	-8.16814
▁tu	-8.16948
▁life	-8.17259
▁john	-8.17368
▁run	-8.17688
▁consider	-8.17728
▁major	-8.18091
ham	-8.18146
▁before	-8.18397
ice	-8.18526
▁gen	-8.18815
▁west	-8.18889
▁building	-8.19285
▁term	-8.19305
▁great	-8.19378
▁bri	-8.19479
▁lead	-8.19852
▁different	-8.20667
▁continue	-8.20668
▁che	-8.21188
▁church	-8.2133
▁san	-8.22449
▁following	-8.22473
▁cap	-8.22786
▁company	-8.23533
▁ten	-8.23676
▁port	-8.24221
▁open	-8.24783
gra	-8.24929
cul	-8.25003
▁while	-8.25205
▁ka	-8.25289
▁def	-8.25558
▁support	-8.25596
▁land	-8.25693
▁arm	-8.26237
▁sen	-8.26613
▁what	-8.26734
ize	-8.26972
▁office	-8.27352
▁law	-8.27441
▁down	-8.27798
▁short	-8.28322
▁provide	-8.28578
▁another	-8.29302
▁return	-8.29485
▁young	-8.29569
▁five	-8.29805
▁island	-8.29829
▁program	-8.2994
▁won	-8.30188
press	-8.30462
▁thi	-8.30599
▁never	-8.30725
’	-8.30921
▁bre	-8.30947
:	-8.30968
▁said	-8.31055
▁six	-8.31454
▁dra	-8.31666
▁class	-8.31774
▁currently	-8.31952
▁success	-8.3196
▁where	-8.32251
▁father	-8.32951
▁train	-8.32988
▁pass	-8.33059
less	-8.33142
▁stand	-8.33239
▁series	-8.33259
▁list	-8.33385
▁club	-8.33911
▁united	-8.3427
▁head	-8.34533
▁region	-8.35342
▁result	-8.36551
▁change	-8.36809
ness	-8.36936
▁married	-8.37102
▁season	-8.38028
mission	-8.39315
▁just	-8.39337
▁received	-8.39378
▁ob	-8.39986
▁black	-8.40076
▁government	-8.40247
▁road	-8.40397
▁opera	-8.40516
▁every	-8.40531
▁american	-8.40852
▁community	-8.41071
▁character	-8.41636
▁point	-8.41639
▁white	-8.41797
▁saint	-8.42217
▁leg	-8.42279
▁early	-8.4246
▁make	-8.42819
▁last	-8.44004
▁german	-8.44226
spec	-8.44714
▁publish	-8.45259
▁popular	-8.45295
▁cho	-8.45502
▁close	-8.45961
▁since	-8.46054
▁lake	-8.46418
ford	-8.46455
▁could	-8.47083
ground	-8.47223
ium	-8.47418
▁began	-8.47736
▁left	-8.47858
▁hand	-8.47924
3	-8.48396
▁player	-8.48456
▁single	-8.48475
▁much	-8.49047
▁addition	-8.49114
▁former	-8.49164
▁brother	-8.49305
▁power	-8.49384
▁contain	-8.49473
▁student	-8.49629
▁side	-8.4969
▁fla	-8.49964
▁cover	-8.50424
▁language	-8.50689
▁international	-8.51214
ified	-8.51536
▁york	-8.51704
▁represent	-8.51761
▁english	-8.51937
▁around	-8.52288
▁came	-8.52472
▁along	-8.52673
▁pla	-8.52785
1	-8.54184
▁career	-8.54486
▁among	-8.54851
▁follow	-8.55641
▁cra	-8.55661
▁tru	-8.55669
▁person	-8.56647
▁title	-8.56736
▁count	-8.5702
9	-8.57304
▁various	-8.57526
▁street	-8.57591
▁seat	-8.57625
▁based	-8.57647
▁death	-8.57666
▁become	-8.5794
▁present	-8.58101
ible	-8.58382
▁against	-8.58876
▁site	-8.59477
▁shi	-8.59885
▁final	-8.59983
▁daughter	-8.59984
tract	-8.60052
▁right	-8.60902
▁center	-8.61022
form	-8.61195
▁good	-8.61546
▁built	-8.61711
▁held	-8.61833
ville	-8.62438
▁president	-8.6305
▁business	-8.63423
▁similar	-8.63643
0	-8.63933
▁usually	-8.64019
▁council	-8.64418
▁track	-8.64773
▁stra	-8.65516
ology	-8.65646
▁species	-8.65695
7	-8.65945
▁written	-8.66009
▁important	-8.66122
▁europe	-8.66281
▁available	-8.66303
▁christ	-8.6644
▁history	-8.66595
▁special	-8.67055
▁green	-8.68126
▁help	-8.68315
▁court	-8.68613
▁next	-8.68861
▁author	-8.6927
▁turn	-8.7009
▁football	-8.70136
▁complete	-8.703
▁period	-8.70301
▁version	-8.70474
▁little	-8.7095
▁example	-8.71678
▁light	-8.7174
burg	-8.7199
▁engine	-8.72113
▁collect	-8.73038
▁london	-8.73293
▁sometimes	-8.73706
▁project	-8.73731
▁consist	-8.73934
▁word	-8.75044
▁mother	-8.75153
▁serve	-8.75609
▁including	-8.75627
▁research	-8.75752
▁process	-8.75811
ency	-8.76108
▁hold	-8.76723
▁third	-8.76801
▁wife	-8.76837
▁again	-8.76909
▁mc	-8.76985
▁australia	-8.77055
▁organ	-8.77059
▁cause	-8.77275
▁operate	-8.77373
▁education	-8.77967
▁week	-8.78366
▁type	-8.78436
▁william	-8.7848
▁grow	-8.79067
▁effect	-8.79095
▁hy	-8.79524
▁central	-8.79533
▁league	-8.79584
▁british	-8.80444
▁country	-8.80784
▁though	-8.82019
▁level	-8.82058
▁grand	-8.82311
▁eventually	-8.82364
▁control	-8.82821
▁further	-8.83275
▁throughout	-8.83597
▁connect	-8.83924
▁french	-8.84119
▁farm	-8.84665
▁previous	-8.84706
▁require	-8.84866
▁involve	-8.8487
▁production	-8.85148
▁those	-8.85362
▁mountain	-8.85417
▁current	-8.86422
▁subsequent	-8.86575
▁political	-8.86741
▁wrote	-8.87808
▁friend	-8.87833
▁blue	-8.87907
▁without	-8.87955
▁position	-8.88001
▁model	-8.88433
▁occur	-8.88706
▁child	-8.90147
▁write	-8.90241
▁england	-8.9028
▁because	-8.9068
▁women	-8.91205
▁ski	-8.91285
▁buried	-8.91866
▁issue	-8.92321
▁official	-8.92342
▁sport	-8.92361
▁studied	-8.92459
mount	-8.92744
▁centre	-8.9364
▁know	-8.93895
▁gold	-8.94005
▁modern	-8.94107
▁nu	-8.94211
▁should	-8.9494
ograph	-8.95106
▁circ	-8.95318
▁together	-8.95605
▁sold	-8.95711
▁style	-8.96212
▁himself	-8.9636
▁museum	-8.96361
▁northern	-8.96784
▁video	-8.97252
▁western	-8.97305
▁strong	-8.98592
▁social	-8.98599
▁range	-8.98812
▁woman	-8.99383
▁walk	-8.99407
▁particular	-8.99467
▁visit	-8.9989
▁market	-9.00131
▁problem	-9.00355
town	-9.01039
▁california	-9.01411
▁southern	-9.01437
▁attack	-9.01643
script	-9.01934
▁cemetery	-9.02446
shire	-9.0254
▁review	-9.03197
ological	-9.03559
▁girl	-9.03756
▁described	-9.04483
▁novel	-9.04643
▁military	-9.05383
▁television	-9.05483
▁product	-9.06183
▁space	-9.06349
▁source	-9.06636
▁view	-9.07504
hood	-9.0779
cycl	-9.07884
▁numerous	-9.07995
▁leave	-9.08053
▁treat	-9.08702
▁africa	-9.08754
▁railway	-9.08755
▁method	-9.08858
▁until	-9.09312
▁brown	-9.0938
▁entire	-9.0984
▁origin	-9.10167
▁influence	-9.11208
▁element	-9.11414
▁airport	-9.11681
▁private	-9.11743
▁location	-9.12081
▁middle	-9.1228
▁bridge	-9.12935
▁capital	-9.13001
▁civil	-9.1311
▁function	-9.13291
▁command	-9.13294
▁access	-9.13761
▁front	-9.14257
▁municipal	-9.14308
▁police	-9.14837
▁independent	-9.14932
▁victor	-9.15046
▁structure	-9.15597
▁travel	-9.15804
▁practice	-9.16379
▁border	-9.16621
▁population	-9.16941
ification	-9.17078
▁significant	-9.17545
▁george	-9.17658
▁division	-9.18228
▁election	-9.18392
▁separate	-9.18419
▁natural	-9.18571
▁course	-9.18582
▁coach	-9.18606
referred	-9.18608
ability	-9.18691
▁commercial	-9.18762
▁always	-9.18782
▁primary	-9.1888
▁radio	-9.18906
▁doctor	-9.1896
▁canada	-9.19121
▁increase	-9.19569
▁speak	-9.2031
▁survive	-9.20511
▁information	-9.21327
▁minister	-9.21328
▁science	-9.21521
▁material	-9.21599
▁regular	-9.2203
▁episode	-9.22585
▁focus	-9.22762
▁coast	-9.22787
▁occasion	-9.23184
▁department	-9.23464
▁replaced	-9.23585
▁almost	-9.23587
▁society	-9.23625
▁associate	-9.24594
▁believe	-9.24596
▁individual	-9.2496
▁valley	-9.25001
▁chief	-9.25217
▁across	-9.25491
▁nearby	-9.25587
▁introduc	-9.25696
▁russia	-9.26163
▁america	-9.26746
▁employ	-9.26768
▁organization	-9.27059
▁france	-9.27372
▁hospital	-9.27601
▁association	-9.28104
▁magazine	-9.29117
▁movement	-9.29207
▁graduate	-9.29247
▁architect	-9.29415
▁protect	-9.30124
▁female	-9.30147
▁construction	-9.30617
▁according	-9.30744
▁famous	-9.30794
▁professional	-9.3083
house	-9.31218
▁writing	-9.31877
▁elected	-9.32007
▁republic	-9.32134
▁parents	-9.32751
▁subject	-9.32925
▁industry	-9.33102
▁study	-9.33323
▁festival	-9.33411
▁instead	-9.33813
▁specific	-9.34052
▁attempt	-9.34302
▁established	-9.34346
▁network	-9.3502
▁summer	-9.35607
▁although	-9.36061
▁secret	-9.36291
▁experience	-9.3638
▁select	-9.36492
▁studio	-9.36975
▁discover	-9.37299
▁voice	-9.3791
▁competition	-9.38224
▁economic	-9.39016
▁degree	-9.39159
▁except	-9.40252
▁journal	-9.40528
▁object	-9.41532
distribut	-9.42402
▁defeat	-9.42741
▁agree	-9.4331
despite	-9.435
construct	-9.44209
q	-9.79273
