<pad>	0
<unk>	0
▁t	-0
he	-1
▁a	-2
in	-3
▁the	-4
er	-5
▁s	-6
on	-7
re	-8
▁c	-9
is	-10
ed	-11
▁w	-12
▁o	-13
▁b	-14
it	-15
en	-16
an	-17
at	-18
or	-19
▁f	-20
▁p	-21
es	-22
▁m	-23
ar	-24
al	-25
as	-26
▁in	-27
▁h	-28
▁an	-29
▁of	-30
▁d	-31
ro	-32
▁l	-33
ing	-34
ic	-35
▁and	-36
▁to	-37
ion	-38
▁n	-39
ou	-40
▁is	-41
il	-42
▁re	-43
le	-44
ent	-45
▁he	-46
▁g	-47
▁was	-48
▁e	-49
▁th	-50
am	-51
om	-52
ly	-53
st	-54
ol	-55
ct	-56
el	-57
un	-58
▁al	-59
▁it	-60
ur	-61
iv	-62
▁st	-63
ad	-64
et	-65
ot	-66
id	-67
ch	-68
ow	-69
▁for	-70
im	-71
us	-72
▁on	-73
▁be	-74
ir	-75
ig	-76
ers	-77
ation	-78
ay	-79
ce	-80
▁are	-81
▁r	-82
ut	-83
ver	-84
▁as	-85
ter	-86
▁con	-87
▁v	-88
ul	-89
ith	-90
▁his	-91
her	-92
and	-93
ain	-94
so	-95
▁with	-96
▁"	-97
▁by	-98
em	-99
▁at	-100
▁ch	-101
ac	-102
▁pro	-103
▁se	-104
▁com	-105
ag	-106
ist	-107
se	-108
av	-109
▁k	-110
um	-111
▁also	-112
▁j	-113
▁this	-114
est	-115
ri	-116
ort	-117
oun	-118
▁de	-119
if	-120
▁un	-121
od	-122
ity	-123
▁y	-124
▁ne	-125
ill	-126
oc	-127
ies	-128
art	-129
ap	-130
rom	-131
ated	-132
ab	-133
op	-134
all	-135
▁su	-136
res	-137
qu	-138
ate	-139
ere	-140
▁pl	-141
ud	-142
os	-143
ive	-144
▁or	-145
▁were	-146
▁has	-147
igh	-148
▁ex	-149
▁from	-150
pe	-151
▁mo	-152
▁sh	-153
ant	-154
ess	-155
ak	-156
ard	-157
ame	-158
ally	-159
▁wh	-160
▁tr	-161
▁that	-162
th	-163
▁ro	-164
red	-165
ge	-166
ld	-167
▁le	-168
end	-169
ip	-170
▁she	-171
our	-172
▁not	-173
▁man	-174
▁ar	-175
up	-176
ong	-177
ave	-178
gh	-179
▁us	-180
ther	-181
ia	-182
ian	-183
ell	-184
ment	-185
▁wor	-186
ast	-187
▁tw	-188
▁they	-189
ous	-190
ren	-191
▁cl	-192
▁comp	-193
ine	-194
ie	-195
".	-196
ome	-197
ater	-198
▁af	-199
ra	-200
ack	-201
wn	-202
cl	-203
ction	-204
ub	-205
ial	-206
▁her	-207
ish	-208
▁have	-209
ight	-210
▁ad	-211
▁two	-212
ber	-213
▁its	-214
og	-215
▁there	-216
▁cont	-217
▁sp	-218
erv	-219
▁one	-220
▁can	-221
ary	-222
▁all	-223
own	-224
▁en	-225
cc	-226
ust	-227
per	-228
▁part	-229
▁comm	-230
ree	-231
pp	-232
ok	-233
ide	-234
▁te	-235
age	-236
▁col	-237
ure	-238
der	-239
ical	-240
ear	-241
ore	-242
ount	-243
▁sch	-244
ool	-245
ition	-246
uc	-247
ire	-248
▁mar	-249
▁had	-250
▁fir	-251
ice	-252
ry	-253
ect	-254
ans	-255
ass	-256
▁new	-257
▁res	-258
▁after	-259
▁play	-260
ugh	-261
rit	-262
ult	-263
▁their	-264
▁int	-265
▁sc	-266
ric	-267
▁been	-268
ord	-269
▁co	-270
▁other	-271
pt	-272
▁loc	-273
ign	-274
und	-275
▁first	-276
iz	-277
▁bo	-278
orn	-279
ail	-280
▁school	-281
ach	-282
ild	-283
ied	-284
fer	-285
land	-286
ang	-287
ations	-288
▁am	-289
pl	-290
▁work	-291
▁ab	-292
ond	-293
▁tim	-294
ue	-295
orm	-296
▁year	-297
ib	-298
▁go	-299
▁me	-300
▁i	-301
▁no	-302
▁rec	-303
▁bec	-304
clud	-305
▁these	-306
▁im	-307
▁kn	-308
out	-309
ich	-310
▁pr	-311
▁per	-312
▁ind	-313
hed	-314
ite	-315
able	-316
▁includ	-317
▁fl	-318
▁serv	-319
ke	-320
▁how	-321
▁dis	-322
are	-323
▁some	-324
ound	-325
te	-326
ould	-327
▁we	-328
▁but	-329
▁inter	-330
▁par	-331
▁des	-332
▁gr	-333
ff	-334
ace	-335
ence	-336
▁most	-337
▁whe	-338
▁fe	-339
▁ev	-340
▁many	-341
▁up	-342
act	-343
ts	-344
one	-345
ents	-346
▁bl	-347
▁po	-348
ors	-349
ance	-350
▁form	-351
▁later	-352
ten	-353
ory	-354
man	-355
▁spe	-356
▁ag	-357
▁gro	-358
ions	-359
▁count	-360
ve	-361
vel	-362
▁used	-363
▁qu	-364
ates	-365
oth	-366
▁out	-367
▁jo	-368
▁br	-369
ubl	-370
▁att	-371
ings	-372
ade	-373
▁cons	-374
▁bro	-375
▁off	-376
▁do	-377
ever	-378
▁him	-379
aw	-380
port	-381
▁mus	-382
urn	-383
▁three	-384
amp	-385
ted	-386
▁town	-387
▁pre	-388
ood	-389
▁however	-390
uring	-391
ational	-392
▁gre	-393
ks	-394
form	-395
ind	-396
les	-397
ivers	-398
▁car	-399
▁time	-400
▁sy	-401
▁reg	-402
▁bu	-403
▁ed	-404
▁so	-405
ress	-406
very	-407
ru	-408
▁into	-409
▁sever	-410
ens	-411
▁act	-412
oll	-413
ious	-414
▁stud	-415
ton	-416
▁sub	-417
ake	-418
▁lo	-419
▁prod	-420
old	-421
▁nort	-422
way	-423
ular	-424
▁gen	-425
▁then	-426
▁only	-427
▁sou	-428
▁rem	-429
anc	-430
▁city	-431
ons	-432
▁ele	-433
▁dist	-434
ath	-435
▁pe	-436
▁known	-437
▁eng	-438
ited	-439
▁ph	-440
ved	-441
▁thro	-442
ase	-443
ily	-444
▁during	-445
▁high	-446
▁several	-447
▁sec	-448
▁both	-449
▁nam	-450
ased	-451
▁may	-452
▁you	-453
▁will	-454
▁mem	-455
iss	-456
▁publ	-457
ick	-458
▁cent	-459
▁over	-460
▁more	-461
ile	-462
▁ap	-463
ward	-464
▁sm	-465
sh	-466
▁lar	-467
▁through	-468
rib	-469
▁fr	-470
▁call	-471
gan	-472
▁fil	-473
ne	-474
▁name	-475
▁pres	-476
als	-477
▁app	-478
▁univers	-479
▁colle	-480
▁char	-481
▁under	-482
▁ac	-483
▁cur	-484
ix	-485
▁born	-486
▁acc	-487
ative	-488
▁pol	-489
ph	-490
ived	-491
rent	-492
enc	-493
ft	-494
▁em	-495
▁ret	-496
▁main	-497
hes	-498
▁sur	-499
▁ma	-500
▁spec	-501
▁four	-502
▁became	-503
▁rel	-504
we	-505
ollow	-506
iver	-507
ities	-508
ics	-509
ep	-510
ose	-511
▁fam	-512
ather	-513
▁fin	-514
▁mon	-515
▁war	-516
▁years	-517
▁follow	-518
ually	-519
▁min	-520
cted	-521
▁located	-522
▁num	-523
air	-524
ains	-525
ife	-526
▁named	-527
▁which	-528
▁film	-529
▁area	-530
ike	-531
▁ter	-532
io	-533
▁child	-534
gr	-535
other	-536
▁found	-537
▁rep	-538
ident	-539
ough	-540
▁university	-541
▁them	-542
ific	-543
▁dif	-544
tern	-545
iel	-546
igin	-547
tle	-548
▁var	-549
ished	-550
▁would	-551
olog	-552
▁now	-553
▁bet	-554
▁gener	-555
▁art	-556
▁ent	-557
▁prov	-558
▁origin	-559
▁made	-560
▁when	-561
▁met	-562
son	-563
▁who	-564
▁inst	-565
▁county	-566
▁air	-567
ci	-568
round	-569
▁called	-570
▁mod	-571
▁trans	-572
▁north	-573
▁alb	-574
ures	-575
▁ear	-576
▁writ	-577
▁sa	-578
▁dr	-579
ral	-580
▁well	-581
▁cap	-582
ost	-583
▁pop	-584
ict	-585
▁appe	-586
▁team	-587
▁inv	-588
eric	-589
▁south	-590
ained	-591
ley	-592
ended	-593
ual	-594
▁set	-595
▁song	-596
▁gu	-597
▁bel	-598
▁music	-599
ll	-600
▁oper	-601
the	-602
ject	-603
▁second	-604
▁add	-605
▁current	-606
ism	-607
ried	-608
int	-609
▁sim	-610
▁commun	-611
ists	-612
▁supp	-613
▁own	-614
▁group	-615
▁ser	-616
▁cre	-617
fore	-618
vern	-619
its	-620
ives	-621
▁long	-622
ale	-623
▁hist	-624
▁each	-625
▁inc	-626
aus	-627
▁pos	-628
ys	-629
▁dep	-630
ield	-631
ered	-632
▁record	-633
elf	-634
min	-635
ank	-636
▁med	-637
▁album	-638
▁day	-639
velop	-640
▁dire	-641
▁peop	-642
ines	-643
▁contin	-644
▁dec	-645
▁show	-646
▁compan	-647
▁def	-648
ouse	-649
eter	-650
▁about	-651
▁sing	-652
▁feat	-653
▁differ	-654
▁again	-655
ork	-656
▁played	-657
▁people	-658
▁sl	-659
▁often	-660
ert	-661
▁govern	-662
▁small	-663
▁av	-664
▁public	-665
ful	-666
▁national	-667
▁near	-668
iet	-669
▁develop	-670
ty	-671
ins	-672
ently	-673
▁very	-674
stem	-675
▁park	-676
▁state	-677
▁such	-678
▁river	-679
▁did	-680
ros	-681
▁book	-682
ck	-683
ug	-684
▁mat	-685
ock	-686
ise	-687
▁ass	-688
az	-689
▁rece	-690
▁world	-691
▁bar	-692
aint	-693
ince	-694
ating	-695
hn	-696
pen	-697
▁americ	-698
inc	-699
augh	-700
▁family	-701
▁system	-702
ision	-703
ont	-704
▁rele	-705
▁design	-706
▁than	-707
▁ty	-708
▁z	-709
▁build	-710
▁end	-711
ower	-712
▁children	-713
ger	-714
▁occ	-715
▁ob	-716
ween	-717
ann	-718
ural	-719
▁vill	-720
ized	-721
ctions	-722
▁use	-723
ctor	-724
rict	-725
▁between	-726
▁perform	-727
▁head	-728
bers	-729
▁produ	-730
ern	-731
▁college	-732
ball	-733
▁const	-734
▁bus	-735
ier	-736
▁imp	-737
▁str	-738
▁any	-739
ants	-740
▁red	-741
ah	-742
ars	-743
▁old	-744
▁home	-745
led	-746
▁back	-747
▁lit	-748
▁local	-749
ided	-750
▁rev	-751
enn	-752
▁aut	-753
ason	-754
iam	-755
▁station	-756
ired	-757
▁cr	-758
ically	-759
urch	-760
ange	-761
iew	-762
▁sign	-763
▁same	-764
",	-765
oot	-766
▁sw	-767
ible	-768
▁still	-769
▁served	-770
▁large	-771
▁ke	-772
hip	-773
▁include	-774
ured	-775
▁run	-776
day	-777
ared	-778
▁maj	-779
ised	-780
ames	-781
▁soc	-782
uced	-783
ement	-784
▁band	-785
▁my	-786
▁like	-787
▁cour	-788
ues	-789
▁common	-790
▁john	-791
by	-792
▁inf	-793
▁consid	-794
oy	-795
▁west	-796
▁before	-797
erson	-798
co	-799
▁exp	-800
▁lead	-801
cept	-802
ments	-803
▁gl	-804
▁har	-805
▁number	-806
ket	-807
ional	-808
▁comple	-809
omet	-810
ract	-811
xt	-812
▁land	-813
▁water	-814
▁major	-815
ages	-816
▁intern	-817
▁desc	-818
▁cor	-819
ird	-820
▁following	-821
get	-822
▁arm	-823
▁ge	-824
uch	-825
osed	-826
ides	-827
ccess	-828
▁son	-829
ull	-830
gest	-831
▁cal	-832
▁port	-833
▁company	-834
▁different	-835
▁stre	-836
▁care	-837
▁wom	-838
▁el	-839
▁while	-840
ices	-841
▁bur	-842
rap	-843
ble	-844
ute	-845
▁district	-846
ink	-847
ued	-848
gram	-849
▁pa	-850
▁island	-851
cess	-852
ined	-853
▁down	-854
ister	-855
ross	-856
els	-857
▁house	-858
ital	-859
▁game	-860
▁five	-861
ov	-862
▁ger	-863
▁youn	-864
▁pat	-865
▁another	-866
▁within	-867
▁open	-868
▁val	-869
▁return	-870
▁pass	-871
ounc	-872
▁div	-873
ark	-874
▁program	-875
▁prim	-876
▁law	-877
▁what	-878
▁never	-879
inn	-880
▁said	-881
▁ins	-882
▁six	-883
▁hel	-884
ting	-885
▁event	-886
▁ste	-887
ik	-888
▁camp	-889
▁class	-890
▁far	-891
▁currently	-892
▁won	-893
▁life	-894
▁success	-895
▁support	-896
▁where	-897
▁organ	-898
lish	-899
▁educ	-900
▁village	-901
▁est	-902
▁series	-903
ution	-904
▁being	-905
▁che	-906
▁stand	-907
ane	-908
▁short	-909
▁father	-910
▁eff	-911
por	-912
▁club	-913
ior	-914
▁united	-915
▁church	-916
rop	-917
▁mil	-918
▁partic	-919
▁great	-920
akes	-921
ium	-922
▁dem	-923
▁states	-924
▁result	-925
▁line	-926
br	-927
▁tre	-928
▁married	-929
▁wal	-930
ven	-931
▁chr	-932
arch	-933
▁ext	-934
▁just	-935
uss	-936
▁mov	-937
▁sk	-938
▁start	-939
▁rest	-940
ility	-941
▁leg	-942
ilt	-943
▁received	-944
▁bas	-945
▁road	-946
▁list	-947
▁bre	-948
▁black	-949
ats	-950
▁polit	-951
▁every	-952
ple	-953
ille	-954
ina	-955
aced	-956
▁	-957
e	-958
a	-959
t	-960
i	-961
s	-962
o	-963
n	-964
r	-965
h	-966
l	-967
d	-968
c	-969
u	-970
m	-971
f	-972
p	-973
.	-974
g	-975
w	-976
y	-977
b	-978
v	-979
k	-980
,	-981
"	-982
x	-983
j	-984
'	-985
-	-986
z	-987
q	-988
?	-989
!	-990
’	-991
:	-992
3	-993
1	-994
9	-995
0	-996
7	-997
