<pad>	0
<unk>	0
▁t	-0
he	-1
▁a	-2
in	-3
▁the	-4
er	-5
▁s	-6
on	-7
re	-8
▁c	-9
is	-10
ed	-11
▁w	-12
▁o	-13
▁b	-14
it	-15
en	-16
an	-17
at	-18
or	-19
▁f	-20
▁p	-21
es	-22
▁m	-23
ar	-24
al	-25
as	-26
▁in	-27
▁h	-28
▁an	-29
▁of	-30
▁d	-31
ro	-32
▁l	-33
ing	-34
ic	-35
▁and	-36
▁to	-37
ion	-38
▁n	-39
ou	-40
▁is	-41
il	-42
▁re	-43
le	-44
ent	-45
▁he	-46
▁g	-47
▁was	-48
▁e	-49
▁th	-50
am	-51
om	-52
ly	-53
st	-54
ol	-55
ct	-56
el	-57
un	-58
▁al	-59
▁it	-60
ur	-61
iv	-62
▁st	-63
ad	-64
et	-65
ot	-66
id	-67
ch	-68
ow	-69
▁for	-70
im	-71
us	-72
▁on	-73
▁be	-74
ir	-75
ig	-76
ers	-77
ation	-78
ay	-79
ce	-80
▁are	-81
▁r	-82
ut	-83
ver	-84
▁as	-85
ter	-86
▁con	-87
▁v	-88
ul	-89
ith	-90
▁his	-91
her	-92
and	-93
ain	-94
so	-95
▁with	-96
▁"	-97
▁by	-98
em	-99
▁at	-100
▁ch	-101
ac	-102
▁pro	-103
▁se	-104
▁com	-105
ag	-106
ist	-107
se	-108
av	-109
▁k	-110
um	-111
▁also	-112
▁j	-113
▁this	-114
est	-115
ri	-116
ort	-117
oun	-118
▁de	-119
if	-120
▁un	-121
od	-122
ity	-123
▁y	-124
▁ne	-125
ill	-126
oc	-127
ies	-128
art	-129
ap	-130
rom	-131
ated	-132
ab	-133
op	-134
all	-135
▁su	-136
res	-137
qu	-138
ate	-139
ere	-140
▁pl	-141
ud	-142
os	-143
ive	-144
▁or	-145
▁were	-146
▁has	-147
igh	-148
▁ex	-149
▁from	-150
pe	-151
▁mo	-152
▁sh	-153
ant	-154
ess	-155
ak	-156
ard	-157
ame	-158
ally	-159
▁wh	-160
▁tr	-161
▁that	-162
th	-163
▁ro	-164
red	-165
ge	-166
ld	-167
▁le	-168
end	-169
ip	-170
▁she	-171
our	-172
▁not	-173
▁man	-174
▁ar	-175
up	-176
ong	-177
ave	-178
gh	-179
▁us	-180
ther	-181
ia	-182
ian	-183
ell	-184
ment	-185
▁wor	-186
ast	-187
▁tw	-188
▁they	-189
ous	-190
ren	-191
▁cl	-192
▁comp	-193
ine	-194
ie	-195
".	-196
ome	-197
ater	-198
▁af	-199
ra	-200
ack	-201
wn	-202
cl	-203
ction	-204
ub	-205
ial	-206
▁her	-207
ish	-208
▁have	-209
ight	-210
▁ad	-211
▁two	-212
ber	-213
▁its	-214
og	-215
▁there	-216
▁cont	-217
▁sp	-218
erv	-219
▁one	-220
▁can	-221
ary	-222
▁all	-223
own	-224
▁en	-225
cc	-226
ust	-227
per	-228
▁part	-229
▁comm	-230
ree	-231
pp	-232
ok	-233
ide	-234
▁te	-235
age	-236
▁col	-237
ure	-238
der	-239
ical	-240
ear	-241
ore	-242
ount	-243
▁sch	-244
ool	-245
ition	-246
uc	-247
ire	-248
▁mar	-249
▁had	-250
▁fir	-251
ice	-252
ry	-253
ect	-254
ans	-255
ass	-256
▁new	-257
▁res	-258
▁after	-259
▁play	-260
ugh	-261
rit	-262
ult	-263
▁their	-264
▁int	-265
▁sc	-266
ric	-267
▁been	-268
ord	-269
▁co	-270
▁other	-271
pt	-272
▁loc	-273
ign	-274
und	-275
▁first	-276
iz	-277
▁bo	-278
orn	-279
ail	-280
▁school	-281
ach	-282
ild	-283
ied	-284
fer	-285
land	-286
ang	-287
ations	-288
▁am	-289
pl	-290
▁work	-291
▁ab	-292
ond	-293
▁tim	-294
ue	-295
orm	-296
▁year	-297
ib	-298
▁go	-299
▁me	-300
▁i	-301
▁no	-302
▁rec	-303
▁bec	-304
clud	-305
▁these	-306
▁im	-307
▁kn	-308
out	-309
ich	-310
▁pr	-311
▁per	-312
▁ind	-313
hed	-314
ite	-315
able	-316
▁includ	-317
▁fl	-318
▁serv	-319
ke	-320
▁how	-321
▁dis	-322
are	-323
▁some	-324
ound	-325
te	-326
ould	-327
▁we	-328
▁but	-329
▁inter	-330
▁par	-331
▁des	-332
▁gr	-333
ff	-334
ace	-335
ence	-336
▁most	-337
▁whe	-338
▁fe	-339
▁ev	-340
▁many	-341
▁up	-342
act	-343
ts	-344
one	-345
ents	-346
▁bl	-347
▁po	-348
ors	-349
ance	-350
▁form	-351
▁later	-352
ten	-353
ory	-354
man	-355
▁spe	-356
▁ag	-357
▁gro	-358
ions	-359
▁count	-360
ve	-361
vel	-362
▁used	-363
▁qu	-364
ates	-365
oth	-366
▁out	-367
▁jo	-368
▁br	-369
ubl	-370
▁att	-371
ings	-372
ade	-373
▁cons	-374
▁bro	-375
▁off	-376
▁do	-377
ever	-378
▁him	-379
aw	-380
port	-381
▁mus	-382
urn	-383
▁three	-384
amp	-385
ted	-386
▁town	-387
▁pre	-388
ood	-389
▁however	-390
uring	-391
ational	-392
▁gre	-393
ks	-394
form	-395
ind	-396
les	-397
ivers	-398
▁car	-399
▁time	-400
▁sy	-401
▁reg	-402
▁bu	-403
▁ed	-404
▁so	-405
ress	-406
very	-407
ru	-408
▁into	-409
▁sever	-410
ens	-411
▁act	-412
oll	-413
ious	-414
▁stud	-415
ton	-416
▁sub	-417
ake	-418
▁lo	-419
▁prod	-420
old	-421
▁nort	-422
way	-423
ular	-424
▁gen	-425
▁then	-426
▁only	-427
▁sou	-428
▁rem	-429
anc	-430
▁city	-431
ons	-432
▁ele	-433
▁dist	-434
ath	-435
▁pe	-436
▁known	-437
▁eng	-438
ited	-439
▁ph	-440
ved	-441
▁thro	-442
ase	-443
ily	-444
▁during	-445
▁high	-446
▁several	-447
▁sec	-448
▁both	-449
▁nam	-450
ased	-451
▁may	-452
▁you	-453
▁will	-454
▁mem	-455
iss	-456
▁publ	-457
ick	-458
▁cent	-459
▁over	-460
▁more	-461
ile	-462
▁ap	-463
ward	-464
▁sm	-465
sh	-466
▁lar	-467
▁through	-468
rib	-469
▁fr	-470
▁call	-471
gan	-472
▁fil	-473
ne	-474
▁name	-475
▁pres	-476
als	-477
▁app	-478
▁univers	-479
▁colle	-480
▁char	-481
▁under	-482
▁ac	-483
▁cur	-484
ix	-485
▁born	-486
▁acc	-487
ative	-488
▁pol	-489
ph	-490
ived	-491
rent	-492
enc	-493
ft	-494
▁em	-495
▁ret	-496
▁main	-497
hes	-498
▁sur	-499
▁ma	-500
▁spec	-501
▁four	-502
▁became	-503
▁rel	-504
we	-505
ollow	-506
iver	-507
ities	-508
ics	-509
ep	-510
ose	-511
▁fam	-512
ather	-513
▁fin	-514
▁mon	-515
▁war	-516
▁years	-517
▁follow	-518
ually	-519
▁min	-520
cted	-521
▁located	-522
▁num	-523
air	-524
ains	-525
ife	-526
▁named	-527
▁which	-528
▁film	-529
▁area	-530
ike	-531
▁ter	-532
io	-533
▁child	-534
gr	-535
other	-536
▁found	-537
▁rep	-538
ident	-539
ough	-540
▁university	-541
▁them	-542
ific	-543
▁dif	-544
tern	-545
iel	-546
igin	-547
tle	-548
▁var	-549
ished	-550
▁would	-551
olog	-552
▁now	-553
▁bet	-554
▁gener	-555
▁art	-556
▁ent	-557
▁prov	-558
▁origin	-559
▁made	-560
▁when	-561
▁met	-562
son	-563
▁who	-564
▁inst	-565
▁county	-566
▁air	-567
ci	-568
round	-569
▁called	-570
▁mod	-571
▁trans	-572
▁north	-573
▁alb	-574
ures	-575
▁ear	-576
▁writ	-577
▁sa	-578
▁dr	-579
ral	-580
▁well	-581
▁cap	-582
ost	-583
▁pop	-584
ict	-585
▁appe	-586
▁team	-587
▁inv	-588
eric	-589
▁south	-590
ained	-591
ley	-592
ended	-593
ual	-594
▁set	-595
▁song	-596
▁gu	-597
▁bel	-598
▁music	-599
ll	-600
▁oper	-601
the	-602
ject	-603
▁second	-604
▁add	-605
▁current	-606
ism	-607
ried	-608
int	-609
▁sim	-610
▁commun	-611
ists	-612
▁supp	-613
▁own	-614
▁group	-615
▁ser	-616
▁cre	-617
fore	-618
vern	-619
its	-620
ives	-621
▁long	-622
ale	-623
▁hist	-624
▁each	-625
▁inc	-626
aus	-627
▁pos	-628
ys	-629
▁dep	-630
ield	-631
ered	-632
▁record	-633
elf	-634
min	-635
ank	-636
▁med	-637
▁album	-638
▁day	-639
velop	-640
▁dire	-641
▁peop	-642
ines	-643
▁contin	-644
▁dec	-645
▁show	-646
▁compan	-647
▁def	-648
ouse	-649
eter	-650
▁about	-651
▁sing	-652
▁feat	-653
▁differ	-654
▁again	-655
ork	-656
▁played	-657
▁people	-658
▁sl	-659
▁often	-660
ert	-661
▁govern	-662
▁small	-663
▁av	-664
▁public	-665
ful	-666
▁national	-667
▁near	-668
iet	-669
▁develop	-670
ty	-671
ins	-672
ently	-673
▁very	-674
stem	-675
▁park	-676
▁state	-677
▁such	-678
▁river	-679
▁did	-680
ros	-681
▁book	-682
ck	-683
ug	-684
▁mat	-685
ock	-686
ise	-687
▁ass	-688
az	-689
▁rece	-690
▁world	-691
▁bar	-692
aint	-693
ince	-694
ating	-695
hn	-696
pen	-697
▁americ	-698
inc	-699
augh	-700
▁family	-701
▁system	-702
ision	-703
ont	-704
▁rele	-705
▁design	-706
▁than	-707
▁ty	-708
▁z	-709
▁build	-710
▁end	-711
ower	-712
▁children	-713
ger	-714
▁occ	-715
▁ob	-716
ween	-717
ann	-718
ural	-719
▁vill	-720
ized	-721
ctions	-722
▁use	-723
ctor	-724
rict	-725
▁between	-726
▁perform	-727
▁head	-728
bers	-729
▁produ	-730
ern	-731
▁college	-732
ball	-733
▁const	-734
▁bus	-735
ier	-736
▁imp	-737
▁str	-738
▁any	-739
ants	-740
▁red	-741
ah	-742
ars	-743
▁old	-744
▁home	-745
led	-746
▁back	-747
▁lit	-748
▁local	-749
ided	-750
▁rev	-751
enn	-752
▁aut	-753
ason	-754
iam	-755
▁station	-756
ired	-757
▁cr	-758
ically	-759
urch	-760
ange	-761
iew	-762
▁sign	-763
▁same	-764
",	-765
oot	-766
▁sw	-767
ible	-768
▁still	-769
▁served	-770
▁large	-771
▁ke	-772
hip	-773
▁include	-774
ured	-775
▁run	-776
day	-777
ared	-778
▁maj	-779
ised	-780
ames	-781
▁soc	-782
uced	-783
ement	-784
▁band	-785
▁my	-786
▁like	-787
▁cour	-788
ues	-789
▁common	-790
▁john	-791
by	-792
▁inf	-793
▁consid	-794
oy	-795
▁west	-796
▁before	-797
erson	-798
co	-799
▁exp	-800
▁lead	-801
cept	-802
ments	-803
▁gl	-804
▁har	-805
▁number	-806
ket	-807
ional	-808
▁comple	-809
omet	-810
ract	-811
xt	-812
▁land	-813
▁water	-814
▁major	-815
ages	-816
▁intern	-817
▁desc	-818
▁cor	-819
ird	-820
▁following	-821
get	-822
▁arm	-823
▁ge	-824
uch	-825
osed	-826
ides	-827
ccess	-828
▁son	-829
ull	-830
gest	-831
▁cal	-832
▁port	-833
▁company	-834
▁different	-835
▁stre	-836
▁care	-837
▁wom	-838
▁el	-839
▁while	-840
ices	-841
▁bur	-842
rap	-843
ble	-844
ute	-845
▁district	-846
ink	-847
ued	-848
gram	-849
▁pa	-850
▁island	-851
cess	-852
ined	-853
▁down	-854
ister	-855
ross	-856
els	-857
▁house	-858
ital	-859
▁game	-860
▁five	-861
ov	-862
▁ger	-863
▁youn	-864
▁pat	-865
▁another	-866
▁within	-867
▁open	-868
▁val	-869
▁return	-870
▁pass	-871
ounc	-872
▁div	-873
ark	-874
▁program	-875
▁prim	-876
▁law	-877
▁what	-878
▁never	-879
inn	-880
▁said	-881
▁ins	-882
▁six	-883
▁hel	-884
ting	-885
▁event	-886
▁ste	-887
ik	-888
▁camp	-889
▁class	-890
▁far	-891
▁currently	-892
▁won	-893
▁life	-894
▁success	-895
▁support	-896
▁where	-897
▁organ	-898
lish	-899
▁educ	-900
▁village	-901
▁est	-902
▁series	-903
ution	-904
▁being	-905
▁che	-906
▁stand	-907
ane	-908
▁short	-909
▁father	-910
▁eff	-911
por	-912
▁club	-913
ior	-914
▁united	-915
▁church	-916
rop	-917
▁mil	-918
▁partic	-919
▁great	-920
akes	-921
ium	-922
▁dem	-923
▁states	-924
▁result	-925
▁line	-926
br	-927
▁tre	-928
▁married	-929
▁wal	-930
ven	-931
▁chr	-932
arch	-933
▁ext	-934
▁just	-935
uss	-936
▁mov	-937
▁sk	-938
▁start	-939
▁rest	-940
ility	-941
▁leg	-942
ilt	-943
▁received	-944
▁bas	-945
▁road	-946
▁list	-947
▁bre	-948
▁black	-949
ats	-950
▁polit	-951
▁every	-952
ple	-953
ille	-954
ina	-955
aced	-956
ship	-957
▁included	-958
▁community	-959
▁award	-960
ology	-961
ob	-962
▁charact	-963
▁offic	-964
▁last	-965
▁lang	-966
▁ref	-967
vers	-968
▁early	-969
▁foot	-970
▁term	-971
con	-972
▁prof	-973
▁members	-974
▁fore	-975
▁east	-976
▁mount	-977
▁fre	-978
▁somet	-979
▁conf	-980
uro	-981
▁rail	-982
ause	-983
ash	-984
ets	-985
▁aust	-986
▁trad	-987
▁import	-988
▁crit	-989
bur	-990
▁party	-991
▁place	-992
▁popular	-993
▁prev	-994
▁white	-995
ays	-996
▁ir	-997
▁tit	-998
▁es	-999
▁adv	-1000
▁sit	-1001
▁could	-1002
▁government	-1003
▁'	-1004
▁see	-1005
▁since	-1006
▁began	-1007
▁hand	-1008
▁former	-1009
▁left	-1010
ately	-1011
ott	-1012
▁took	-1013
▁much	-1014
▁miss	-1015
itions	-1016
▁vis	-1017
▁saint	-1018
bo	-1019
▁conc	-1020
▁mag	-1021
▁brother	-1022
▁vers	-1023
ec	-1024
▁member	-1025
▁contro	-1026
▁langu	-1027
ham	-1028
ator	-1029
▁brit	-1030
ries	-1031
▁german	-1032
iness	-1033
▁addition	-1034
▁repres	-1035
mer	-1036
ces	-1037
hen	-1038
▁english	-1039
▁american	-1040
▁around	-1041
▁died	-1042
ford	-1043
ped	-1044
▁along	-1045
▁mid	-1046
▁ann	-1047
ison	-1048
▁if	-1049
▁king	-1050
ster	-1051
soci	-1052
▁bat	-1053
hing	-1054
chn	-1055
▁among	-1056
ime	-1057
▁hum	-1058
▁rom	-1059
ified	-1060
▁times	-1061
▁histor	-1062
ron	-1063
▁cond	-1064
▁building	-1065
▁associ	-1066
ented	-1067
▁general	-1068
quently	-1069
ody	-1070
idge	-1071
ians	-1072
ograp	-1073
let	-1074
▁based	-1075
▁sol	-1076
ature	-1077
ling	-1078
▁arch	-1079
▁various	-1080
▁season	-1081
▁death	-1082
ows	-1083
ene	-1084
urs	-1085
▁career	-1086
▁service	-1087
▁against	-1088
▁considered	-1089
ially	-1090
atic	-1091
▁manag	-1092
▁je	-1093
▁ra	-1094
▁daugh	-1095
ilar	-1096
me	-1097
▁worked	-1098
▁york	-1099
▁euro	-1100
▁compet	-1101
aining	-1102
imes	-1103
▁requ	-1104
▁original	-1105
▁post	-1106
aking	-1107
▁right	-1108
▁international	-1109
▁held	-1110
▁released	-1111
▁typ	-1112
▁built	-1113
que	-1114
▁even	-1115
▁don	-1116
▁avail	-1117
▁good	-1118
omin	-1119
▁few	-1120
▁techn	-1121
▁equ	-1122
par	-1123
▁person	-1124
eng	-1125
▁today	-1126
▁business	-1127
▁similar	-1128
▁fac	-1129
▁repl	-1130
iod	-1131
▁usually	-1132
▁track	-1133
▁refer	-1134
▁lake	-1135
▁counc	-1136
▁la	-1137
ribut	-1138
▁went	-1139
med	-1140
▁eas	-1141
▁produced	-1142
▁best	-1143
▁fun	-1144
ony	-1145
ters	-1146
ality	-1147
ner	-1148
▁species	-1149
ague	-1150
▁men	-1151
▁rad	-1152
▁works	-1153
ival	-1154
▁sal	-1155
▁written	-1156
ves	-1157
▁important	-1158
▁europe	-1159
▁available	-1160
side	-1161
▁field	-1162
uck	-1163
▁christ	-1164
▁ep	-1165
ruct	-1166
▁history	-1167
row	-1168
▁profess	-1169
▁president	-1170
iety	-1171
▁fur	-1172
▁lab	-1173
self	-1174
▁young	-1175
▁describ	-1176
erg	-1177
▁chang	-1178
▁indust	-1179
▁ang	-1180
▁del	-1181
ences	-1182
bert	-1183
ax	-1184
▁single	-1185
be	-1186
▁next	-1187
▁canad	-1188
▁auth	-1189
hy	-1190
▁power	-1191
che	-1192
ience	-1193
▁turn	-1194
▁football	-1195
▁special	-1196
▁lim	-1197
▁period	-1198
▁cover	-1199
▁attended	-1200
aster	-1201
▁little	-1202
▁tele	-1203
ases	-1204
▁does	-1205
▁exper	-1206
▁way	-1207
ondon	-1208
iving	-1209
ville	-1210
erc	-1211
ient	-1212
▁cle	-1213
▁opp	-1214
ention	-1215
aim	-1216
▁council	-1217
▁sen	-1218
▁london	-1219
▁side	-1220
rod	-1221
▁sometimes	-1222
lu	-1223
estern	-1224
▁grad	-1225
ways	-1226
▁street	-1227
▁disc	-1228
▁cat	-1229
iven	-1230
ches	-1231
ness	-1232
▁mother	-1233
riend	-1234
ret	-1235
▁word	-1236
▁invol	-1237
▁austral	-1238
ances	-1239
▁rese	-1240
▁wood	-1241
▁schools	-1242
▁tem	-1243
ai	-1244
▁prot	-1245
▁including	-1246
▁process	-1247
▁phil	-1248
▁non	-1249
▁stat	-1250
▁cult	-1251
▁rock	-1252
af	-1253
▁here	-1254
yl	-1255
ese	-1256
ored	-1257
▁wee	-1258
▁character	-1259
▁hill	-1260
▁third	-1261
▁wife	-1262
▁ren	-1263
less	-1264
ming	-1265
▁aff	-1266
▁news	-1267
▁continued	-1268
au	-1269
▁top	-1270
▁ship	-1271
▁project	-1272
▁seat	-1273
▁kill	-1274
▁hon	-1275
▁cast	-1276
▁william	-1277
▁det	-1278
▁bor	-1279
▁green	-1280
▁expl	-1281
rench	-1282
ms	-1283
▁center	-1284
ning	-1285
▁ant	-1286
▁effect	-1287
▁elect	-1288
▁geor	-1289
▁appear	-1290
▁hy	-1291
rote	-1292
ards	-1293
yle	-1294
▁er	-1295
▁prom	-1296
▁report	-1297
▁british	-1298
▁country	-1299
▁lat	-1300
ief	-1301
▁published	-1302
▁site	-1303
▁came	-1304
▁central	-1305
lo	-1306
▁tri	-1307
▁hold	-1308
ring	-1309
conom	-1310
ulation	-1311
urb	-1312
ler	-1313
▁though	-1314
▁includes	-1315
ories	-1316
▁grand	-1317
▁interest	-1318
▁pract	-1319
▁tradition	-1320
▁point	-1321
▁eventually	-1322
ode	-1323
▁month	-1324
pect	-1325
▁sum	-1326
▁arr	-1327
▁level	-1328
▁incre	-1329
▁surv	-1330
▁pri	-1331
▁moved	-1332
▁throughout	-1333
▁light	-1334
yn	-1335
▁further	-1336
▁activ	-1337
▁hal	-1338
▁french	-1339
▁must	-1340
oss	-1341
▁games	-1342
apan	-1343
ency	-1344
▁previous	-1345
▁econom	-1346
▁due	-1347
▁subse	-1348
▁those	-1349
epend	-1350
▁order	-1351
▁init	-1352
▁cross	-1353
▁make	-1354
lic	-1355
▁songs	-1356
cle	-1357
▁soon	-1358
▁students	-1359
line	-1360
▁mor	-1361
▁win	-1362
▁poss	-1363
▁resp	-1364
▁become	-1365
ones	-1366
▁region	-1367
aff	-1368
ots	-1369
▁free	-1370
▁capt	-1371
▁look	-1372
▁league	-1373
▁wrote	-1374
▁friend	-1375
▁without	-1376
▁iss	-1377
▁tour	-1378
▁vol	-1379
▁need	-1380
orts	-1381
▁host	-1382
▁japan	-1383
▁mun	-1384
▁features	-1385
osp	-1386
▁net	-1387
▁live	-1388
ertain	-1389
▁author	-1390
▁constru	-1391
▁once	-1392
▁ill	-1393
▁mill	-1394
field	-1395
▁ten	-1396
▁dev	-1397
ization	-1398
erous	-1399
wards	-1400
▁england	-1401
ges	-1402
itary	-1403
▁because	-1404
▁influ	-1405
▁wide	-1406
▁independ	-1407
ission	-1408
▁research	-1409
read	-1410
▁women	-1411
▁rich	-1412
to	-1413
▁read	-1414
hern	-1415
de	-1416
▁prop	-1417
▁buried	-1418
aces	-1419
▁hol	-1420
aving	-1421
▁hall	-1422
▁engine	-1423
▁fire	-1424
▁li	-1425
▁champ	-1426
▁generally	-1427
ize	-1428
▁let	-1429
▁studied	-1430
ney	-1431
alth	-1432
ery	-1433
▁ve	-1434
▁mult	-1435
▁largest	-1436
▁cir	-1437
▁dav	-1438
▁led	-1439
▁office	-1440
▁priv	-1441
most	-1442
▁appro	-1443
▁star	-1444
irl	-1445
▁development	-1446
▁fact	-1447
▁gold	-1448
▁muse	-1449
work	-1450
uated	-1451
hod	-1452
adem	-1453
▁eight	-1454
▁language	-1455
ston	-1456
ced	-1457
used	-1458
▁jun	-1459
▁hen	-1460
▁areas	-1461
▁modern	-1462
aves	-1463
▁take	-1464
▁vict	-1465
wood	-1466
▁mal	-1467
ably	-1468
▁should	-1469
▁returned	-1470
▁court	-1471
▁tro	-1472
▁final	-1473
▁den	-1474
ively	-1475
▁toget	-1476
reek	-1477
▁together	-1478
▁political	-1479
ument	-1480
bor	-1481
▁exist	-1482
com	-1483
▁mean	-1484
▁hous	-1485
ellow	-1486
ged	-1487
▁inform	-1488
▁museum	-1489
▁himself	-1490
ey	-1491
▁title	-1492
▁sold	-1493
ps	-1494
ked	-1495
▁beg	-1496
gress	-1497
▁northern	-1498
▁mot	-1499
▁vide	-1500
▁services	-1501
▁western	-1502
▁get	-1503
▁depart	-1504
aken	-1505
▁education	-1506
mit	-1507
▁grow	-1508
ample	-1509
▁broad	-1510
▁academ	-1511
raft	-1512
ape	-1513
▁nat	-1514
▁direct	-1515
▁originally	-1516
▁player	-1517
▁cem	-1518
▁appeared	-1519
▁estab	-1520
app	-1521
▁sn	-1522
▁present	-1523
▁cam	-1524
▁low	-1525
▁daughter	-1526
▁strong	-1527
▁wind	-1528
▁township	-1529
▁cemeter	-1530
▁given	-1531
▁wat	-1532
bs	-1533
thern	-1534
▁remains	-1535
▁woman	-1536
▁particular	-1537
▁beh	-1538
▁conn	-1539
▁role	-1540
▁test	-1541
aper	-1542
iforn	-1543
▁base	-1544
▁vir	-1545
▁market	-1546
▁unt	-1547
ither	-1548
▁proble	-1549
sc	-1550
vision	-1551
▁hig	-1552
▁seven	-1553
ected	-1554
▁californ	-1555
▁started	-1556
▁real	-1557
ript	-1558
▁using	-1559
▁trav	-1560
▁board	-1561
umb	-1562
▁southern	-1563
▁attack	-1564
▁dam	-1565
▁tal	-1566
yal	-1567
▁california	-1568
▁hun	-1569
▁social	-1570
ino	-1571
▁cemetery	-1572
▁admin	-1573
dle	-1574
▁find	-1575
eral	-1576
▁sour	-1577
▁blue	-1578
istr	-1579
▁full	-1580
▁civ	-1581
▁review	-1582
▁books	-1583
▁struct	-1584
▁close	-1585
▁dest	-1586
itive	-1587
▁sound	-1588
▁sil	-1589
▁fall	-1590
▁sym	-1591
▁developed	-1592
▁girl	-1593
▁production	-1594
▁san	-1595
ploy	-1596
▁others	-1597
▁described	-1598
▁princ	-1599
▁ital	-1600
▁separ	-1601
▁know	-1602
▁instit	-1603
▁coll	-1604
▁ground	-1605
icip	-1606
▁military	-1607
mar	-1608
▁proper	-1609
▁story	-1610
rew	-1611
▁television	-1612
▁ident	-1613
ury	-1614
▁product	-1615
kn	-1616
ze	-1617
▁lost	-1618
▁mass	-1619
go	-1620
▁signific	-1621
▁russ	-1622
▁example	-1623
▁sent	-1624
ops	-1625
▁forest	-1626
ald	-1627
▁ham	-1628
▁hard	-1629
▁der	-1630
itor	-1631
▁mater	-1632
ove	-1633
▁view	-1634
▁playing	-1635
▁less	-1636
▁sun	-1637
▁seen	-1638
▁centre	-1639
king	-1640
▁pal	-1641
▁novel	-1642
▁numerous	-1643
den	-1644
▁anim	-1645
▁lives	-1646
ata	-1647
▁days	-1648
▁afric	-1649
▁offer	-1650
▁method	-1651
▁your	-1652
ele	-1653
lin	-1654
▁means	-1655
▁until	-1656
ama	-1657
▁brown	-1658
▁heav	-1659
ying	-1660
▁pur	-1661
▁night	-1662
▁version	-1663
▁successful	-1664
▁wall	-1665
ceed	-1666
▁entire	-1667
aged	-1668
▁super	-1669
▁nav	-1670
▁fort	-1671
▁control	-1672
inted	-1673
▁created	-1674
ibr	-1675
▁commit	-1676
▁body	-1677
▁fish	-1678
west	-1679
▁ber	-1680
▁airport	-1681
▁recorded	-1682
▁comb	-1683
▁thus	-1684
▁round	-1685
cast	-1686
ana	-1687
of	-1688
ament	-1689
▁fem	-1690
▁deb	-1691
▁army	-1692
▁allow	-1693
▁cy	-1694
▁ver	-1695
▁nor	-1696
▁command	-1697
▁civil	-1698
▁dou	-1699
▁epis	-1700
▁director	-1701
▁official	-1702
▁events	-1703
ris	-1704
▁access	-1705
▁remained	-1706
ators	-1707
oice	-1708
▁municip	-1709
▁position	-1710
rest	-1711
ead	-1712
ering	-1713
▁sat	-1714
▁want	-1715
play	-1716
ached	-1717
▁ball	-1718
▁provided	-1719
▁teams	-1720
ned	-1721
▁mich	-1722
▁god	-1723
▁produc	-1724
▁que	-1725
▁contains	-1726
▁conv	-1727
arth	-1728
▁caus	-1729
▁complete	-1730
▁designed	-1731
▁video	-1732
▁claim	-1733
▁capital	-1734
arily	-1735
▁case	-1736
▁roman	-1737
▁surround	-1738
▁di	-1739
▁week	-1740
▁performed	-1741
rents	-1742
empt	-1743
raw	-1744
▁grew	-1745
▁jack	-1746
ogn	-1747
▁exec	-1748
▁fail	-1749
▁significant	-1750
▁squ	-1751
▁mix	-1752
▁featured	-1753
ara	-1754
anch	-1755
▁upon	-1756
uf	-1757
▁jour	-1758
ological	-1759
ox	-1760
▁ide	-1761
▁represent	-1762
oor	-1763
▁style	-1764
hic	-1765
▁foc	-1766
▁subsequently	-1767
hib	-1768
ma	-1769
▁age	-1770
emb	-1771
▁always	-1772
▁primary	-1773
▁accord	-1774
uk	-1775
▁human	-1776
▁front	-1777
▁canada	-1778
ivid	-1779
▁phot	-1780
▁belie	-1781
tens	-1782
▁liter	-1783
▁plat	-1784
▁working	-1785
▁railway	-1786
▁police	-1787
▁thom	-1788
lex	-1789
istic	-1790
ote	-1791
▁big	-1792
▁jud	-1793
▁followed	-1794
▁royal	-1795
▁too	-1796
▁active	-1797
▁middle	-1798
wh	-1799
▁mostly	-1800
▁material	-1801
▁administr	-1802
▁ever	-1803
▁invest	-1804
▁regular	-1805
▁information	-1806
▁norm	-1807
▁joined	-1808
▁union	-1809
ched	-1810
▁plant	-1811
▁resid	-1812
oms	-1813
▁press	-1814
ping	-1815
▁mur	-1816
▁vi	-1817
ination	-1818
▁occas	-1819
▁bay	-1820
▁sam	-1821
ending	-1822
▁almost	-1823
▁replaced	-1824
▁society	-1825
ocr	-1826
▁cou	-1827
▁earl	-1828
▁outside	-1829
ades	-1830
hood	-1831
▁owned	-1832
fic	-1833
nal	-1834
▁involved	-1835
ids	-1836
▁hot	-1837
▁fest	-1838
▁fund	-1839
omes	-1840
ius	-1841
▁circ	-1842
▁half	-1843
▁individ	-1844
olic	-1845
▁particip	-1846
▁valley	-1847
▁ho	-1848
na	-1849
▁bal	-1850
craft	-1851
▁radio	-1852
ems	-1853
gre	-1854
▁battle	-1855
▁across	-1856
▁hosp	-1857
▁coast	-1858
▁fight	-1859
▁nearby	-1860
▁private	-1861
▁sug	-1862
▁groups	-1863
▁introd	-1864
▁mountain	-1865
▁australia	-1866
oney	-1867
▁hor	-1868
▁transl	-1869
▁sett	-1870
ique	-1871
▁phys	-1872
▁pet	-1873
▁indian	-1874
ember	-1875
▁james	-1876
▁relations	-1877
▁dog	-1878
▁color	-1879
▁vari	-1880
▁plays	-1881
▁taken	-1882
▁sus	-1883
▁love	-1884
▁below	-1885
▁mer	-1886
▁come	-1887
▁food	-1888
▁space	-1889
▁george	-1890
burg	-1891
▁bank	-1892
medi	-1893
▁chief	-1894
itar	-1895
▁cop	-1896
▁syn	-1897
▁jew	-1898
▁range	-1899
▁champions	-1900
▁bi	-1901
▁mel	-1902
▁lies	-1903
▁sand	-1904
▁boy	-1905
aut	-1906
bour	-1907
▁away	-1908
▁doctor	-1909
acy	-1910
▁winn	-1911
itect	-1912
▁libr	-1913
▁independent	-1914
orpor	-1915
▁accom	-1916
▁magaz	-1917
▁months	-1918
enced	-1919
gin	-1920
▁mary	-1921
rie	-1922
▁architect	-1923
▁fif	-1924
▁neigh	-1925
known	-1926
▁lou	-1927
▁corn	-1928
▁plan	-1929
▁extens	-1930
ground	-1931
lished	-1932
aps	-1933
▁impro	-1934
▁republ	-1935
▁aud	-1936
aries	-1937
▁past	-1938
▁decl	-1939
cially	-1940
▁enc	-1941
▁cred	-1942
▁raised	-1943
▁mainly	-1944
▁according	-1945
▁famous	-1946
▁mc	-1947
▁appo	-1948
▁bir	-1949
ilities	-1950
▁systems	-1951
ends	-1952
▁fed	-1953
▁put	-1954
mon	-1955
▁relig	-1956
▁serves	-1957
▁eastern	-1958
gen	-1959
▁mic	-1960
▁elected	-1961
▁ly	-1962
▁noted	-1963
▁inj	-1964
▁sele	-1965
▁wear	-1966
▁employ	-1967
▁obs	-1968
wer	-1969
▁meet	-1970
ule	-1971
ercial	-1972
▁records	-1973
▁lear	-1974
▁disco	-1975
▁parents	-1976
asc	-1977
ints	-1978
▁subject	-1979
ago	-1980
▁arg	-1981
▁tom	-1982
▁above	-1983
▁recogn	-1984
ateg	-1985
▁industry	-1986
▁bill	-1987
▁reserv	-1988
▁desp	-1989
▁natural	-1990
▁population	-1991
ae	-1992
▁commercial	-1993
amed	-1994
ex	-1995
▁chair	-1996
▁comput	-1997
▁america	-1998
▁instead	-1999
▁esc	-2000
ells	-2001
▁release	-2002
off	-2003
▁execut	-2004
▁health	-2005
road	-2006
▁sea	-2007
▁treat	-2008
▁attempt	-2009
▁republic	-2010
iple	-2011
▁established	-2012
..	-2013
▁lived	-2014
▁tur	-2015
▁alth	-2016
oted	-2017
▁sports	-2018
▁specific	-2019
cher	-2020
▁construction	-2021
▁tor	-2022
▁players	-2023
men	-2024
▁cro	-2025
▁exam	-2026
▁stage	-2027
▁occur	-2028
▁agric	-2029
▁type	-2030
olution	-2031
▁referred	-2032
▁gard	-2033
▁pot	-2034
▁bridge	-2035
▁step	-2036
▁forms	-2037
▁training	-2038
▁fav	-2039
▁rob	-2040
▁rul	-2041
▁although	-2042
▁quick	-2043
ett	-2044
▁agricult	-2045
aker	-2046
over	-2047
anish	-2048
▁mart	-2049
hem	-2050
▁pred	-2051
▁shows	-2052
▁parts	-2053
gg	-2054
▁sem	-2055
igr	-2056
▁minister	-2057
ributed	-2058
▁wil	-2059
▁compos	-2060
▁paint	-2061
▁buildings	-2062
key	-2063
uel	-2064
▁cath	-2065
▁david	-2066
▁flow	-2067
ores	-2068
▁model	-2069
▁association	-2070
ught	-2071
▁help	-2072
▁stri	-2073
▁parish	-2074
▁previously	-2075
band	-2076
▁names	-2077
ee	-2078
▁paul	-2079
▁got	-2080
▁assist	-2081
▁gar	-2082
▁changed	-2083
acher	-2084
▁division	-2085
▁killed	-2086
▁headqu	-2087
▁cost	-2088
ential	-2089
▁formed	-2090
▁france	-2091
▁pit	-2092
icated	-2093
▁native	-2094
like	-2095
▁either	-2096
ware	-2097
▁except	-2098
▁done	-2099
▁tex	-2100
▁change	-2101
▁democr	-2102
▁department	-2103
▁key	-2104
▁itself	-2105
▁hit	-2106
▁opt	-2107
▁express	-2108
aught	-2109
▁defe	-2110
here	-2111
ams	-2112
▁saw	-2113
▁ey	-2114
▁los	-2115
▁clim	-2116
▁constit	-2117
▁hospital	-2118
ael	-2119
ope	-2120
▁feature	-2121
▁secret	-2122
▁films	-2123
▁consists	-2124
▁maint	-2125
reme	-2126
ky	-2127
▁gave	-2128
▁surf	-2129
▁cut	-2130
▁fig	-2131
ours	-2132
asons	-2133
tered	-2134
▁pain	-2135
▁countries	-2136
ufact	-2137
▁theat	-2138
▁commission	-2139
utes	-2140
▁traditional	-2141
▁ach	-2142
▁force	-2143
iff	-2144
▁conserv	-2145
▁despite	-2146
▁manufact	-2147
ements	-2148
▁typically	-2149
sel	-2150
heast	-2151
▁ben	-2152
▁ox	-2153
▁pers	-2154
xic	-2155
ples	-2156
▁dark	-2157
iction	-2158
eth	-2159
time	-2160
hel	-2161
▁listed	-2162
▁consist	-2163
▁race	-2164
▁studies	-2165
▁stop	-2166
▁nar	-2167
▁accept	-2168
▁bow	-2169
▁exc	-2170
▁liber	-2171
▁science	-2172
iding	-2173
▁therefore	-2174
▁runs	-2175
aign	-2176
imin	-2177
▁doc	-2178
▁anal	-2179
atory	-2180
ification	-2181
▁angel	-2182
▁remain	-2183
▁farm	-2184
▁immedi	-2185
▁sister	-2186
iment	-2187
▁fa	-2188
▁log	-2189
▁sons	-2190
▁bird	-2191
▁educated	-2192
▁christian	-2193
▁european	-2194
▁location	-2195
ffer	-2196
▁lower	-2197
▁observ	-2198
▁houses	-2199
▁dut	-2200
▁deter	-2201
▁media	-2202
uct	-2203
roy	-2204
▁gun	-2205
aur	-2206
▁pen	-2207
head	-2208
▁added	-2209
▁operated	-2210
▁india	-2211
▁say	-2212
outh	-2213
▁uses	-2214
▁artic	-2215
▁platform	-2216
▁coach	-2217
▁fair	-2218
▁consider	-2219
ails	-2220
▁soft	-2221
▁honor	-2222
▁campaign	-2223
ability	-2224
▁regard	-2225
▁our	-2226
pecially	-2227
▁newsp	-2228
▁certain	-2229
▁transport	-2230
dom	-2231
str	-2232
▁complex	-2233
▁limited	-2234
inct	-2235
▁think	-2236
mp	-2237
▁object	-2238
well	-2239
ipp	-2240
▁aircraft	-2241
ask	-2242
icy	-2243
▁takes	-2244
▁especially	-2245
▁germany	-2246
▁professional	-2247
iting	-2248
riage	-2249
▁library	-2250
ficult	-2251
▁mr	-2252
▁critic	-2253
▁difficult	-2254
ising	-2255
▁academy	-2256
▁chap	-2257
▁mark	-2258
ites	-2259
▁border	-2260
▁reported	-2261
sy	-2262
iers	-2263
▁applic	-2264
▁cand	-2265
▁movement	-2266
val	-2267
▁magazine	-2268
▁clear	-2269
ania	-2270
▁mac	-2271
berg	-2272
ights	-2273
▁primarily	-2274
▁committe	-2275
arters	-2276
tr	-2277
▁parl	-2278
pr	-2279
vir	-2280
▁nine	-2281
ires	-2282
▁nick	-2283
▁ran	-2284
tic	-2285
▁tar	-2286
tal	-2287
▁settle	-2288
airs	-2289
▁writing	-2290
enth	-2291
▁possible	-2292
ises	-2293
▁spent	-2294
▁ple	-2295
▁performance	-2296
ta	-2297
elled	-2298
▁frank	-2299
▁poet	-2300
hab	-2301
▁robert	-2302
▁tracks	-2303
oke	-2304
▁suc	-2305
▁instr	-2306
cer	-2307
▁rather	-2308
▁commonly	-2309
▁associated	-2310
▁related	-2311
xim	-2312
▁mach	-2313
▁widely	-2314
orth	-2315
my	-2316
▁appears	-2317
ili	-2318
stand	-2319
oph	-2320
rick	-2321
▁quest	-2322
▁reviews	-2323
▁yellow	-2324
▁neg	-2325
▁practice	-2326
▁action	-2327
nes	-2328
▁initially	-2329
▁self	-2330
▁guitar	-2331
▁thomas	-2332
ica	-2333
▁smith	-2334
▁occup	-2335
▁summer	-2336
▁network	-2337
▁languages	-2338
ush	-2339
▁meas	-2340
▁journal	-2341
▁directed	-2342
▁scott	-2343
isc	-2344
▁having	-2345
▁course	-2346
▁voc	-2347
▁oppos	-2348
▁ros	-2349
lands	-2350
▁standard	-2351
aches	-2352
quent	-2353
▁championship	-2354
▁du	-2355
▁fle	-2356
▁achie	-2357
▁data	-2358
▁election	-2359
▁respons	-2360
▁rac	-2361
▁stone	-2362
▁study	-2363
oon	-2364
▁mad	-2365
▁cust	-2366
▁succeed	-2367
▁rap	-2368
▁altern	-2369
idence	-2370
▁beach	-2371
▁provides	-2372
▁tax	-2373
▁function	-2374
olf	-2375
▁japanese	-2376
eds	-2377
▁lay	-2378
▁parliam	-2379
tar	-2380
▁exhib	-2381
omb	-2382
elling	-2383
▁brought	-2384
▁train	-2385
▁activities	-2386
▁concept	-2387
▁festival	-2388
orporated	-2389
▁female	-2390
ties	-2391
anded	-2392
▁colon	-2393
▁qual	-2394
▁oh	-2395
▁thought	-2396
▁catholic	-2397
ida	-2398
chan	-2399
cient	-2400
▁agre	-2401
▁spring	-2402
▁quickly	-2403
▁bra	-2404
▁alex	-2405
orial	-2406
▁behind	-2407
▁structure	-2408
▁bad	-2409
▁pan	-2410
teen	-2411
▁pie	-2412
▁rare	-2413
▁makes	-2414
'.	-2415
▁castle	-2416
▁minor	-2417
▁suffer	-2418
▁parliament	-2419
atively	-2420
▁match	-2421
ened	-2422
▁continues	-2423
ude	-2424
▁mayor	-2425
▁princip	-2426
▁creek	-2427
ha	-2428
▁pun	-2429
▁penn	-2430
ership	-2431
▁covered	-2432
▁divided	-2433
▁earth	-2434
▁tourn	-2435
ography	-2436
▁disp	-2437
▁travel	-2438
igned	-2439
phy	-2440
▁theory	-2441
▁suggest	-2442
▁living	-2443
▁prison	-2444
back	-2445
uation	-2446
▁territ	-2447
▁reb	-2448
▁represented	-2449
▁particularly	-2450
▁money	-2451
▁tun	-2452
itz	-2453
▁musical	-2454
inese	-2455
▁mont	-2456
▁cause	-2457
▁-	-2458
▁longer	-2459
isl	-2460
enty	-2461
undred	-2462
▁frequently	-2463
ula	-2464
ense	-2465
▁prob	-2466
▁ut	-2467
▁fer	-2468
not	-2469
▁changes	-2470
▁franc	-2471
▁campus	-2472
itan	-2473
▁hus	-2474
▁bud	-2475
▁imm	-2476
▁adj	-2477
▁scre	-2478
▁victor	-2479
▁envir	-2480
▁bound	-2481
ker	-2482
▁virgin	-2483
▁dro	-2484
▁multiple	-2485
▁break	-2486
▁fut	-2487
▁notable	-2488
rian	-2489
▁awards	-2490
▁shortly	-2491
▁appointed	-2492
▁richard	-2493
▁programs	-2494
▁late	-2495
▁comes	-2496
▁characters	-2497
ray	-2498
▁ze	-2499
▁dig	-2500
▁ancient	-2501
▁box	-2502
▁bul	-2503
▁hundred	-2504
▁additional	-2505
aph	-2506
▁deal	-2507
asing	-2508
▁flor	-2509
apt	-2510
for	-2511
▁source	-2512
▁historical	-2513
▁variety	-2514
pan	-2515
▁editor	-2516
▁environ	-2517
▁spanish	-2518
▁companies	-2519
▁schol	-2520
▁forces	-2521
▁critics	-2522
▁burn	-2523
▁higher	-2524
▁purp	-2525
▁shot	-2526
▁types	-2527
▁via	-2528
▁composed	-2529
▁supported	-2530
▁saf	-2531
rel	-2532
▁heart	-2533
▁nomin	-2534
▁province	-2535
odes	-2536
▁lad	-2537
▁cab	-2538
thing	-2539
▁cases	-2540
▁scient	-2541
▁older	-2542
▁chinese	-2543
irt	-2544
▁rural	-2545
▁survived	-2546
▁charles	-2547
▁governor	-2548
umn	-2549
▁text	-2550
▁focus	-2551
▁room	-2552
▁terms	-2553
▁required	-2554
ole	-2555
▁competition	-2556
▁viol	-2557
▁better	-2558
▁trib	-2559
▁fourth	-2560
▁ven	-2561
▁destroy	-2562
▁brothers	-2563
▁broadcast	-2564
▁relationship	-2565
▁chic	-2566
▁going	-2567
▁connect	-2568
▁promin	-2569
▁eth	-2570
▁ban	-2571
▁section	-2572
▁italian	-2573
▁lin	-2574
▁lif	-2575
▁teacher	-2576
▁situated	-2577
▁friends	-2578
▁card	-2579
ergy	-2580
▁acqu	-2581
▁route	-2582
▁mexic	-2583
▁student	-2584
▁marriage	-2585
▁ath	-2586
▁leaves	-2587
▁offers	-2588
▁abs	-2589
▁brand	-2590
oso	-2591
▁sex	-2592
▁corpor	-2593
▁regional	-2594
▁separate	-2595
amb	-2596
▁wild	-2597
▁making	-2598
▁recent	-2599
▁cele	-2600
▁medical	-2601
▁sup	-2602
▁account	-2603
▁problems	-2604
▁hom	-2605
uments	-2606
▁headquarters	-2607
rup	-2608
▁paris	-2609
▁staff	-2610
▁committee	-2611
▁anti	-2612
▁domin	-2613
▁closed	-2614
cy	-2615
▁decided	-2616
ingu	-2617
▁products	-2618
▁financ	-2619
▁episode	-2620
▁sir	-2621
uate	-2622
▁deg	-2623
▁trade	-2624
ios	-2625
▁scot	-2626
▁movie	-2627
▁michael	-2628
▁pict	-2629
clus	-2630
▁allowed	-2631
uff	-2632
▁collection	-2633
rial	-2634
▁cit	-2635
▁artist	-2636
▁dom	-2637
▁mixed	-2638
▁couple	-2639
▁ju	-2640
▁washing	-2641
▁suburb	-2642
▁immediately	-2643
oid	-2644
▁provide	-2645
eration	-2646
▁speak	-2647
uce	-2648
ump	-2649
▁china	-2650
olk	-2651
ulated	-2652
▁islands	-2653
abor	-2654
▁cup	-2655
▁peter	-2656
▁arts	-2657
▁points	-2658
▁plann	-2659
ving	-2660
▁rank	-2661
▁equip	-2662
▁africa	-2663
ionally	-2664
▁element	-2665
▁problem	-2666
ength	-2667
ils	-2668
▁majority	-2669
bl	-2670
▁ded	-2671
▁lines	-2672
▁introduced	-2673
▁visit	-2674
▁finished	-2675
▁ended	-2676
▁canadian	-2677
▁positive	-2678
▁issues	-2679
▁keep	-2680
▁table	-2681
▁stories	-2682
▁historic	-2683
▁dan	-2684
▁upper	-2685
▁highly	-2686
▁deep	-2687
▁louis	-2688
▁amb	-2689
▁wa	-2690
▁shop	-2691
▁professor	-2692
▁ol	-2693
hest	-2694
▁insp	-2695
▁rain	-2696
▁voice	-2697
▁master	-2698
ols	-2699
att	-2700
▁pil	-2701
inet	-2702
▁municipality	-2703
▁pow	-2704
▁texas	-2705
▁unknown	-2706
board	-2707
▁inn	-2708
▁yet	-2709
▁mission	-2710
▁conse	-2711
▁degree	-2712
▁results	-2713
▁adult	-2714
▁display	-2715
▁meaning	-2716
▁termin	-2717
▁turned	-2718
▁pay	-2719
▁give	-2720
▁poor	-2721
▁drum	-2722
ym	-2723
▁adop	-2724
▁daughters	-2725
ander	-2726
can	-2727
shire	-2728
▁smaller	-2729
ests	-2730
▁poly	-2731
bury	-2732
▁greek	-2733
▁placed	-2734
▁op	-2735
town	-2736
▁ult	-2737
▁kind	-2738
atives	-2739
▁awarded	-2740
gar	-2741
▁chem	-2742
ressed	-2743
▁mechan	-2744
▁completed	-2745
▁institute	-2746
▁face	-2747
▁gall	-2748
▁winter	-2749
▁leader	-2750
▁date	-2751
▁stations	-2752
▁subst	-2753
▁running	-2754
▁floor	-2755
bridge	-2756
▁culture	-2757
▁larger	-2758
▁largely	-2759
▁organization	-2760
▁theatre	-2761
▁individual	-2762
▁husband	-2763
▁henry	-2764
▁prote	-2765
▁legisl	-2766
▁residents	-2767
▁washington	-2768
ograph	-2769
▁birth	-2770
izes	-2771
▁quar	-2772
▁lord	-2773
ropol	-2774
▁quite	-2775
▁personal	-2776
▁vehic	-2777
▁ess	-2778
▁nature	-2779
aching	-2780
ensive	-2781
▁discover	-2782
selves	-2783
hol	-2784
▁concern	-2785
▁railroad	-2786
ously	-2787
▁towns	-2788
▁thir	-2789
ireland	-2790
▁cer	-2791
▁towards	-2792
▁controvers	-2793
▁draw	-2794
▁basket	-2795
▁founded	-2796
▁operations	-2797
▁x	-2798
▁emb	-2799
▁tenn	-2800
▁captain	-2801
▁paper	-2802
▁rights	-2803
rison	-2804
▁australian	-2805
▁lie	-2806
▁russian	-2807
don	-2808
▁dead	-2809
▁themselves	-2810
▁jewish	-2811
▁succeeded	-2812
oses	-2813
▁caused	-2814
lor	-2815
▁ord	-2816
▁manager	-2817
agon	-2818
▁autom	-2819
▁future	-2820
▁religious	-2821
▁foreign	-2822
anced	-2823
▁assemb	-2824
▁stad	-2825
▁management	-2826
iles	-2827
▁words	-2828
▁candid	-2829
▁younger	-2830
▁economic	-2831
ington	-2832
ference	-2833
▁investig	-2834
▁aug	-2835
▁prior	-2836
▁shown	-2837
▁environment	-2838
isher	-2839
ounced	-2840
▁nothing	-2841
▁recently	-2842
met	-2843
▁fly	-2844
ota	-2845
aled	-2846
aped	-2847
▁mention	-2848
▁offered	-2849
▁technology	-2850
leg	-2851
▁operates	-2852
action	-2853
▁progress	-2854
inning	-2855
▁chann	-2856
▁extreme	-2857
▁facilities	-2858
▁property	-2859
▁prem	-2860
▁preserv	-2861
▁executive	-2862
▁youth	-2863
gy	-2864
▁least	-2865
▁junior	-2866
tt	-2867
▁eld	-2868
▁stock	-2869
▁latin	-2870
▁cities	-2871
▁male	-2872
▁carol	-2873
▁ireland	-2874
fort	-2875
view	-2876
▁artists	-2877
▁appl	-2878
cent	-2879
▁oil	-2880
▁inside	-2881
▁taught	-2882
▁snow	-2883
▁cry	-2884
▁spir	-2885
vert	-2886
▁carried	-2887
ung	-2888
ender	-2889
▁symb	-2890
ona	-2891
porary	-2892
ibility	-2893
▁influence	-2894
▁bene	-2895
uction	-2896
han	-2897
▁writer	-2898
▁jose	-2899
▁attra	-2900
▁holds	-2901
mond	-2902
▁why	-2903
▁swed	-2904
▁graduated	-2905
▁appearance	-2906
▁studio	-2907
▁ast	-2908
▁gra	-2909
ection	-2910
▁wearing	-2911
gl	-2912
pected	-2913
▁celebr	-2914
▁neighbor	-2915
istry	-2916
▁dance	-2917
▁latter	-2918
ider	-2919
uit	-2920
▁spl	-2921
▁temper	-2922
▁arrang	-2923
▁psy	-2924
▁stars	-2925
ux	-2926
▁enj	-2927
mitted	-2928
▁haw	-2929
house	-2930
▁stay	-2931
ror	-2932
▁tree	-2933
▁distinct	-2934
pro	-2935
ustr	-2936
▁failed	-2937
▁chicago	-2938
▁shar	-2939
▁helped	-2940
▁versions	-2941
pped	-2942
▁opened	-2943
▁twice	-2944
▁ful	-2945
▁kingdom	-2946
▁tournament	-2947
ips	-2948
▁trains	-2949
edy	-2950
ching	-2951
rief	-2952
▁reason	-2953
▁size	-2954
▁managed	-2955
▁require	-2956
▁	-2957
e	-2958
a	-2959
t	-2960
i	-2961
s	-2962
o	-2963
n	-2964
r	-2965
h	-2966
l	-2967
d	-2968
c	-2969
u	-2970
m	-2971
f	-2972
p	-2973
.	-2974
g	-2975
w	-2976
y	-2977
b	-2978
v	-2979
k	-2980
,	-2981
"	-2982
x	-2983
j	-2984
'	-2985
-	-2986
z	-2987
q	-2988
?	-2989
!	-2990
’	-2991
:	-2992
3	-2993
1	-2994
9	-2995
0	-2996
7	-2997
